{
  "vocab": {
    "a": 0,
    "i": 1,
    "n": 2,
    "o": 3,
    "l": 4,
    "r": 5,
    "s": 6,
    "t": 7,
    "h": 8,
    "d": 9,
    "u": 10,
    "y": 11,
    "k": 12,
    "g": 13,
    "b": 14,
    "m": 15,
    "la": 16,
    "e": 17,
    "ar": 18,
    "an": 19,
    "sh": 20,
    "ni": 21,
    "da": 22,
    "q": 23,
    "in": 24,
    "li": 25,
    "v": 26,
    "ri": 27,
    "lar": 28,
    "il": 29,
    "ga": 30,
    "is": 31,
    "iy": 32,
    "ti": 33,
    "z": 34,
    "as": 35,
    "ta": 36,
    "al": 37,
    "di": 38,
    "si": 39,
    "c": 40,
    "ch": 41,
    "at": 42,
    "ha": 43,
    "ya": 44,
    "hi": 45,
    "ng": 46,
    "ma": 47,
    "id": 48,
    "ish": 49,
    "ir": 50,
    "un": 51,
    "on": 52,
    "or": 53,
    "ari": 54,
    "f": 55,
    "p": 56,
    "ra": 57,
    "ida": 58,
    "ol": 59,
    "va": 60,
    "ba": 61,
    "gi": 62,
    "bo": 63,
    "iya": 64,
    "j": 65,
    "lari": 66,
    "ik": 67,
    "ing": 68,
    "ala": 69,
    "x": 70,
    "bi": 71,
    "gan": 72,
    "qi": 73,
    "ini": 74,
    "ku": 75,
    "ka": 76,
    "am": 77,
    "nin": 78,
    "ro": 79,
    "os": 80,
    "mi": 81,
    "ay": 82,
    "ad": 83,
    "to": 84,
    "ning": 85,
    "sa": 86,
    "er": 87,
    "ab": 88,
    "uni": 89,
    "na": 90,
    "yo": 91,
    "im": 92,
    "ki": 93,
    "ig": 94,
    "zi": 95,
    "qa": 96,
    "shi": 97,
    "ash": 98,
    "mo": 99,
    "sha": 100,
    "ag": 101,
    "chi": 102,
    "kun": 103,
    "st": 104,
    "ko": 105,
    "ot": 106,
    "asi": 107,
    "yi": 108,
    "av": 109,
    "alar": 110,
    "it": 111,
    "lan": 112,
    "ib": 113,
    "ila": 114,
    "et": 115,
    "ani": 116,
    "oli": 117,
    "lo": 118,
    "hu": 119,
    "ur": 120,
    "lik": 121,
    "kuni": 122,
    "dan": 123,
    "iri": 124,
    "en": 125,
    "ak": 126,
    "rl": 127,
    "az": 128,
    "mu": 129,
    "nd": 130,
    "so": 131,
    "ll": 132,
    "ld": 133,
    "ili": 134,
    "siy": 135,
    "lg": 136,
    "ati": 137,
    "nb": 138,
    "hl": 139,
    "de": 140,
    "han": 141,
    "ʻ": 142,
    "fa": 143,
    "nt": 144,
    "tl": 145,
    "oy": 146,
    "no": 147,
    "us": 148,
    "om": 149,
    "iga": 150,
    "tu": 151,
    "anb": 152,
    "osh": 153,
    "nba": 154,
    "anba": 155,
    "ja": 156,
    "te": 157,
    "shan": 158,
    "iz": 159,
    "be": 160,
    "um": 161,
    "shanb": 162,
    "hanb": 163,
    "shanba": 164,
    "hanba": 165,
    "ali": 166,
    "rd": 167,
    "aq": 168,
    "lga": 169,
    "ov": 170,
    "ldi": 171,
    "nl": 172,
    "dag": 173,
    "re": 174,
    "agi": 175,
    "qo": 176,
    "ke": 177,
    "siya": 178,
    "iq": 179,
    "rin": 180,
    "oʻ": 181,
    "es": 182,
    "rt": 183,
    "oq": 184,
    "liy": 185,
    "dagi": 186,
    "adi": 187,
    "ho": 188,
    "bu": 189,
    "2": 190,
    "azi": 191,
    "pa": 192,
    "qil": 193,
    "hla": 194,
    "ek": 195,
    "ts": 196,
    "lis": 197,
    "ris": 198,
    "rn": 199,
    "tla": 200,
    "shl": 201,
    "uc": 202,
    "las": 203,
    "uch": 204,
    "rs": 205,
    "lish": 206,
    "cha": 207,
    "lgan": 208,
    "rg": 209,
    "0": 210,
    "rish": 211,
    "uv": 212,
    "bil": 213,
    "do": 214,
    "tir": 215,
    "ara": 216,
    "el": 217,
    "ah": 218,
    "rni": 219,
    "tsi": 220,
    "shla": 221,
    "lash": 222,
    "lim": 223,
    "ishi": 224,
    "lab": 225,
    "tas": 226,
    "ul": 227,
    "xa": 228,
    "rla": 229,
    "aba": 230,
    "ok": 231,
    "ild": 232,
    "hun": 233,
    "tlar": 234,
    "vo": 235,
    "tal": 236,
    "inin": 237,
    "lig": 238,
    "yu": 239,
    "ining": 240,
    "qar": 241,
    "sid": 242,
    "ilan": 243,
    "arn": 244,
    "ori": 245,
    "oz": 246,
    "ic": 247,
    "arni": 248,
    "sida": 249,
    "igi": 250,
    "ent": 251,
    "alari": 252,
    "eti": 253,
    "bos": 254,
    "td": 255,
    "tsiy": 256,
    "tsiya": 257,
    "larn": 258,
    "larni": 259,
    "idan": 260,
    "nla": 261,
    "rini": 262,
    "rga": 263,
    "lla": 264,
    "oni": 265,
    "ich": 266,
    "ist": 267,
    "oliy": 268,
    "bir": 269,
    "ligi": 270,
    "bila": 271,
    "ildi": 272,
    "1": 273,
    "ang": 274,
    "bilan": 275,
    "af": 276,
    "vi": 277,
    "ss": 278,
    "od": 279,
    "hil": 280,
    "tg": 281,
    "qu": 282,
    "ada": 283,
    "chu": 284,
    "tga": 285,
    "yal": 286,
    "nga": 287,
    "ilg": 288,
    "yan": 289,
    "ye": 290,
    "dav": 291,
    "hlar": 292,
    "and": 293,
    "vl": 294,
    "chun": 295,
    "arin": 296,
    "rli": 297,
    "ill": 298,
    "niy": 299,
    "ru": 300,
    "vaz": 301,
    "lat": 302,
    "iyal": 303,
    "se": 304,
    "po": 305,
    "vazi": 306,
    "til": 307,
    "vla": 308,
    "rda": 309,
    "arini": 310,
    "zir": 311,
    "og": 312,
    "za": 313,
    "bar": 314,
    "fo": 315,
    "yil": 316,
    "ush": 317,
    "ut": 318,
    "larin": 319,
    "ber": 320,
    "zo": 321,
    "ilga": 322,
    "larini": 323,
    "su": 324,
    "ham": 325,
    "ton": 326,
    "idag": 327,
    "idagi": 328,
    "tis": 329,
    "ndi": 330,
    "azir": 331,
    "atl": 332,
    "du": 333,
    "nn": 334,
    "hd": 335,
    "pr": 336,
    "tash": 337,
    "vazir": 338,
    "tin": 339,
    "lib": 340,
    "ishl": 341,
    "hk": 342,
    "uchu": 343,
    "ras": 344,
    "asid": 345,
    "oi": 346,
    "chil": 347,
    "asida": 348,
    "ril": 349,
    "rlar": 350,
    "xo": 351,
    "aro": 352,
    "ama": 353,
    "ilgan": 354,
    "ht": 355,
    "uchun": 356,
    "hg": 357,
    "rid": 358,
    "sto": 359,
    "yala": 360,
    "ud": 361,
    "lad": 362,
    "qili": 363,
    "hga": 364,
    "iris": 365,
    "irish": 366,
    "iv": 367,
    "kt": 368,
    "uz": 369,
    "lli": 370,
    "iyala": 371,
    "yat": 372,
    "ats": 373,
    "ve": 374,
    "shg": 375,
    "niya": 376,
    "rida": 377,
    "yot": 378,
    "qd": 379,
    "ika": 380,
    "ilar": 381,
    "yalar": 382,
    "atsi": 383,
    "mon": 384,
    "shd": 385,
    "tan": 386,
    "ob": 387,
    "shlar": 388,
    "ns": 389,
    "if": 390,
    "shga": 391,
    "har": 392,
    "kl": 393,
    "nc": 394,
    "ml": 395,
    "tgan": 396,
    "bl": 397,
    "osi": 398,
    "sin": 399,
    "sht": 400,
    "ilis": 401,
    "lin": 402,
    "ilish": 403,
    "bosh": 404,
    "iyalar": 405,
    "jo": 406,
    "orl": 407,
    "ed": 408,
    "ston": 409,
    "ishla": 410,
    "miy": 411,
    "mas": 412,
    "nda": 413,
    "ub": 414,
    "3": 415,
    "nch": 416,
    "ey": 417,
    "lm": 418,
    "isto": 419,
    "nid": 420,
    "yl": 421,
    "ngi": 422,
    "iston": 423,
    "ladi": 424,
    "icha": 425,
    "rat": 426,
    "ayo": 427,
    "ard": 428,
    "yt": 429,
    "yas": 430,
    "tur": 431,
    "hin": 432,
    "kor": 433,
    "nis": 434,
    "nida": 435,
    "kaz": 436,
    "shk": 437,
    "tid": 438,
    "sti": 439,
    "ona": 440,
    "oti": 441,
    "atla": 442,
    "oh": 443,
    "anin": 444,
    "mat": 445,
    "tala": 446,
    "hti": 447,
    "uma": 448,
    "tiri": 449,
    "rm": 450,
    "op": 451,
    "nov": 452,
    "io": 453,
    "tish": 454,
    "ola": 455,
    "alab": 456,
    "avl": 457,
    "tida": 458,
    "nlar": 459,
    "fi": 460,
    "vat": 461,
    "ju": 462,
    "4": 463,
    "iro": 464,
    "tdi": 465,
    "eri": 466,
    "avla": 467,
    "irl": 468,
    "davl": 469,
    "davla": 470,
    "davlat": 471,
    "avlat": 472,
    "vlat": 473,
    "asa": 474,
    "hr": 475,
    "llar": 476,
    "shti": 477,
    "kis": 478,
    "kil": 479,
    "sl": 480,
    "htir": 481,
    "bor": 482,
    "atsiy": 483,
    "atsiya": 484,
    "shtir": 485,
    "aqi": 486,
    "yasi": 487,
    "mla": 488,
    "5": 489,
    "mal": 490,
    "ax": 491,
    "ngan": 492,
    "gani": 493,
    "ora": 494,
    "uri": 495,
    "aga": 496,
    "me": 497,
    "mar": 498,
    "tr": 499,
    "rdi": 500,
    "shu": 501,
    "iyas": 502,
    "iyasi": 503,
    "talab": 504,
    "xi": 505,
    "nti": 506,
    "oyi": 507,
    "siyal": 508,
    "tar": 509,
    "go": 510,
    "ez": 511,
    "illi": 512,
    "nal": 513,
    "ort": 514,
    "riy": 515,
    "vc": 516,
    "vch": 517,
    "le": 518,
    "siyala": 519,
    "gu": 520,
    "hir": 521,
    "iyat": 522,
    "vchi": 523,
    "imi": 524,
    "rk": 525,
    "ayt": 526,
    "uk": 527,
    "moq": 528,
    "avo": 529,
    "biy": 530,
    "rsh": 531,
    "onl": 532,
    "arg": 533,
    "man": 534,
    "siyalar": 535,
    "mil": 536,
    "yic": 537,
    "yich": 538,
    "yicha": 539,
    "cho": 540,
    "ne": 541,
    "qda": 542,
    "hila": 543,
    "inn": 544,
    "kazi": 545,
    "bal": 546,
    "mk": 547,
    "iyo": 548,
    "aka": 549,
    "tor": 550,
    "ova": 551,
    "aniy": 552,
    "his": 553,
    "sini": 554,
    "uh": 555,
    "20": 556,
    "min": 557,
    "hki": 558,
    "br": 559,
    "sp": 560,
    "chila": 561,
    "em": 562,
    "art": 563,
    "jum": 564,
    "hilar": 565,
    "kk": 566,
    "chilar": 567,
    "rb": 568,
    "oshl": 569,
    "atlar": 570,
    "tk": 571,
    "rig": 572,
    "laba": 573,
    "aniya": 574,
    "alaba": 575,
    "tib": 576,
    "kat": 577,
    "dir": 578,
    "ide": 579,
    "yd": 580,
    "ishg": 581,
    "tsiyal": 582,
    "esh": 583,
    "ua": 584,
    "den": 585,
    "6": 586,
    "mill": 587,
    "ishga": 588,
    "tsiyala": 589,
    "riga": 590,
    "he": 591,
    "kel": 592,
    "ij": 593,
    "inc": 594,
    "ion": 595,
    "rti": 596,
    "oqd": 597,
    "inch": 598,
    "arga": 599,
    "qs": 600,
    "oqda": 601,
    "oll": 602,
    "ilm": 603,
    "lu": 604,
    "tsiyalar": 605,
    "ks": 606,
    "hor": 607,
    "zid": 608,
    "ind": 609,
    "liya": 610,
    "ers": 611,
    "of": 612,
    "yos": 613,
    "9": 614,
    "ev": 615,
    "8": 616,
    "ver": 617,
    "omo": 618,
    "arda": 619,
    "sit": 620,
    "ezi": 621,
    "nli": 622,
    "rsi": 623,
    "bek": 624,
    "amo": 625,
    "nno": 626,
    "pre": 627,
    "itu": 628,
    "inno": 629,
    "ral": 630,
    "nk": 631,
    "ashk": 632,
    "rnin": 633,
    "7": 634,
    "shki": 635,
    "tashk": 636,
    "nidan": 637,
    "hkil": 638,
    "andi": 639,
    "ssi": 640,
    "zil": 641,
    "ashki": 642,
    "ite": 643,
    "tashki": 644,
    "tashkil": 645,
    "ashkil": 646,
    "shkil": 647,
    "tom": 648,
    "shir": 649,
    "ishd": 650,
    "uvc": 651,
    "uvch": 652,
    "nish": 653,
    "tlari": 654,
    "anga": 655,
    "hdi": 656,
    "rning": 657,
    "ishlar": 658,
    "talaba": 659,
    "rlik": 660,
    "zl": 661,
    "tka": 662,
    "ovat": 663,
    "sal": 664,
    "moqd": 665,
    "uvchi": 666,
    "moqda": 667,
    "anl": 668,
    "nova": 669,
    "fan": 670,
    "nchi": 671,
    "ana": 672,
    "aqs": 673,
    "ʼ": 674,
    "tet": 675,
    "chor": 676,
    "nnov": 677,
    "oshla": 678,
    "nnova": 679,
    "innov": 680,
    "innova": 681,
    "novat": 682,
    "hal": 683,
    "far": 684,
    "nnovat": 685,
    "innovat": 686,
    "aning": 687,
    "tkaz": 688,
    "ge": 689,
    "vats": 690,
    "arid": 691,
    "ql": 692,
    "vatsi": 693,
    "tn": 694,
    "shin": 695,
    "ive": 696,
    "vers": 697,
    "novats": 698,
    "novatsi": 699,
    "ovats": 700,
    "ovatsi": 701,
    "larg": 702,
    "yla": 703,
    "nnovats": 704,
    "nnovatsi": 705,
    "innovats": 706,
    "innovatsi": 707,
    "larga": 708,
    "hn": 709,
    "ys": 710,
    "eki": 711,
    "rta": 712,
    "iver": 713,
    "ersi": 714,
    "qaro": 715,
    "kin": 716,
    "iden": 717,
    "tiris": 718,
    "tirish": 719,
    "versi": 720,
    "lard": 721,
    "niv": 722,
    "nive": 723,
    "univ": 724,
    "unive": 725,
    "tali": 726,
    "univer": 727,
    "niver": 728,
    "ivers": 729,
    "nu": 730,
    "ors": 731,
    "univers": 732,
    "nivers": 733,
    "onla": 734,
    "ia": 735,
    "hiq": 736,
    "lishi": 737,
    "ami": 738,
    "iversi": 739,
    "universi": 740,
    "niversi": 741,
    "eng": 742,
    "arida": 743,
    "versit": 744,
    "ersit": 745,
    "rsit": 746,
    "universit": 747,
    "niversit": 748,
    "iversit": 749,
    "tad": 750,
    "tomo": 751,
    "rez": 752,
    "uq": 753,
    "ashi": 754,
    "fe": 755,
    "dent": 756,
    "ikk": 757,
    "kla": 758,
    "itet": 759,
    "larda": 760,
    "lay": 761,
    "eg": 762,
    "ass": 763,
    "ʻl": 764,
    "asin": 765,
    "ident": 766,
    "chiq": 767,
    "shdi": 768,
    "pay": 769,
    "milli": 770,
    "tini": 771,
    "site": 772,
    "sitet": 773,
    "versite": 774,
    "ersite": 775,
    "rsite": 776,
    "aj": 777,
    "niversite": 778,
    "iversite": 779,
    "versitet": 780,
    "ersitet": 781,
    "rsitet": 782,
    "iversitet": 783,
    "kist": 784,
    "hiri": 785,
    "md": 786,
    "asini": 787,
    "ant": 788,
    "rezi": 789,
    "rezid": 790,
    "ezid": 791,
    "rezide": 792,
    "reziden": 793,
    "ezide": 794,
    "eziden": 795,
    "zide": 796,
    "ziden": 797,
    "rezident": 798,
    "ezident": 799,
    "zident": 800,
    "kam": 801,
    "sm": 802,
    "prez": 803,
    "larid": 804,
    "kisto": 805,
    "kiston": 806,
    "lov": 807,
    "prezi": 808,
    "prezid": 809,
    "prezide": 810,
    "preziden": 811,
    "prezident": 812,
    "kon": 813,
    "larida": 814,
    "inl": 815,
    "ayot": 816,
    "old": 817,
    "kas": 818,
    "pi": 819,
    "angan": 820,
    "otg": 821,
    "diy": 822,
    "otga": 823,
    "mol": 824,
    "arnin": 825,
    "arning": 826,
    "zb": 827,
    "mid": 828,
    "tda": 829,
    "quv": 830,
    "uy": 831,
    "bat": 832,
    "arig": 833,
    "ariga": 834,
    "omon": 835,
    "abar": 836,
    "xab": 837,
    "xaba": 838,
    "xabar": 839,
    "iril": 840,
    "pu": 841,
    "mda": 842,
    "odi": 843,
    "vr": 844,
    "afa": 845,
    "edi": 846,
    "isi": 847,
    "larnin": 848,
    "larning": 849,
    "rq": 850,
    "bala": 851,
    "hlari": 852,
    "zbe": 853,
    "ses": 854,
    "zbek": 855,
    "hb": 856,
    "ilo": 857,
    "arl": 858,
    "qilis": 859,
    "qilish": 860,
    "lang": 861,
    "balar": 862,
    "oshi": 863,
    "nat": 864,
    "oʻl": 865,
    "ilin": 866,
    "ran": 867,
    "rad": 868,
    "otgan": 869,
    "asal": 870,
    "ziri": 871,
    "yotg": 872,
    "yotga": 873,
    "dar": 874,
    "mua": 875,
    "atsiyal": 876,
    "atsiyala": 877,
    "vaziri": 878,
    "aziri": 879,
    "ji": 880,
    "ken": 881,
    "onid": 882,
    "land": 883,
    "larig": 884,
    "lariga": 885,
    "dus": 886,
    "tli": 887,
    "esha": 888,
    "angi": 889,
    "ins": 890,
    "hni": 891,
    "alo": 892,
    "tt": 893,
    "onida": 894,
    "ays": 895,
    "rsha": 896,
    "eshan": 897,
    "abal": 898,
    "sesh": 899,
    "sesha": 900,
    "seshan": 901,
    "seshanb": 902,
    "seshanba": 903,
    "eshanb": 904,
    "eshanba": 905,
    "ogi": 906,
    "shiri": 907,
    "langa": 908,
    "pe": 909,
    "zg": 910,
    "qild": 911,
    "qildi": 912,
    "tomon": 913,
    "olla": 914,
    "orsh": 915,
    "rgan": 916,
    "yor": 917,
    "hors": 918,
    "chors": 919,
    "orsha": 920,
    "chorsh": 921,
    "chorsha": 922,
    "horsh": 923,
    "horsha": 924,
    "yani": 925,
    "mp": 926,
    "langan": 927,
    "chorshan": 928,
    "chorshanb": 929,
    "horshan": 930,
    "horshanb": 931,
    "horshanba": 932,
    "orshan": 933,
    "orshanb": 934,
    "orshanba": 935,
    "rshan": 936,
    "rshanb": 937,
    "rshanba": 938,
    "ird": 939,
    "usha": 940,
    "tkazi": 941,
    "atsiyalar": 942,
    "hq": 943,
    "ex": 944,
    "ayotg": 945,
    "yotgan": 946,
    "ayotga": 947,
    "kki": 948,
    "omi": 949,
    "ayotgan": 950,
    "ita": 951,
    "dush": 952,
    "juma": 953,
    "yang": 954,
    "ekis": 955,
    "orla": 956,
    "qis": 957,
    "mm": 958,
    "hda": 959,
    "ura": 960,
    "anis": 961,
    "dusha": 962,
    "dushan": 963,
    "ushan": 964,
    "dushanb": 965,
    "ushanb": 966,
    "mida": 967,
    "inchi": 968,
    "oa": 969,
    "him": 970,
    "ina": 971,
    "dushanba": 972,
    "ushanba": 973,
    "yosh": 974,
    "yangi": 975,
    "sala": 976,
    "orli": 977,
    "hini": 978,
    "haq": 979,
    "vatsiy": 980,
    "vatsiya": 981,
    "ark": 982,
    "beki": 983,
    "moni": 984,
    "yati": 985,
    "novatsiy": 986,
    "ovatsiy": 987,
    "qla": 988,
    "nnovatsiy": 989,
    "novatsiya": 990,
    "ovatsiya": 991,
    "yon": 992,
    "say": 993,
    "nlari": 994,
    "mko": 995,
    "che": 996,
    "shn": 997,
    "ysh": 998,
    "qilin": 999,
    "rma": 1000,
    "ilad": 1001,
    "aysh": 1002,
    "anish": 1003,
    "pays": 1004,
    "ysha": 1005,
    "paysh": 1006,
    "paysha": 1007,
    "payshan": 1008,
    "payshanb": 1009,
    "payshanba": 1010,
    "aysha": 1011,
    "ayshan": 1012,
    "ayshanb": 1013,
    "ayshanba": 1014,
    "yshan": 1015,
    "yshanb": 1016,
    "yshanba": 1017,
    "zbeki": 1018,
    "zbekis": 1019,
    "zbekist": 1020,
    "bekis": 1021,
    "bekist": 1022,
    "ekist": 1023,
    "hri": 1024,
    "beri": 1025,
    "olib": 1026,
    "hli": 1027,
    "oya": 1028,
    "lq": 1029,
    "shni": 1030,
    "kom": 1031,
    "alabal": 1032,
    "labal": 1033,
    "era": 1034,
    "oldi": 1035,
    "zbekisto": 1036,
    "zbekiston": 1037,
    "bekisto": 1038,
    "bekiston": 1039,
    "ekisto": 1040,
    "ekiston": 1041,
    "talabal": 1042,
    "imo": 1043,
    "par": 1044,
    "rlari": 1045,
    "ovatsiyal": 1046,
    "vatsiyal": 1047,
    "vatsiyala": 1048,
    "asala": 1049,
    "afar": 1050,
    "avi": 1051,
    "shar": 1052,
    "iladi": 1053,
    "iyan": 1054,
    "rinin": 1055,
    "tay": 1056,
    "abala": 1057,
    "abalar": 1058,
    "alabala": 1059,
    "alabalar": 1060,
    "labala": 1061,
    "labalar": 1062,
    "rining": 1063,
    "talabala": 1064,
    "talabalar": 1065,
    "etil": 1066,
    "ikki": 1067,
    "rik": 1068,
    "iyani": 1069,
    "bla": 1070,
    "ssa": 1071,
    "hm": 1072,
    "zirl": 1073,
    "rok": 1074,
    "gin": 1075,
    "amd": 1076,
    "tex": 1077,
    "loy": 1078,
    "sas": 1079,
    "vazirl": 1080,
    "azirl": 1081,
    "bli": 1082,
    "bol": 1083,
    "xon": 1084,
    "shda": 1085,
    "teti": 1086,
    "irla": 1087,
    "xn": 1088,
    "eta": 1089,
    "boʻ": 1090,
    "exn": 1091,
    "texn": 1092,
    "otl": 1093,
    "tit": 1094,
    "amda": 1095,
    "landi": 1096,
    "ekt": 1097,
    "oj": 1098,
    "alim": 1099,
    "uti": 1100,
    "res": 1101,
    "ozi": 1102,
    "ast": 1103,
    "smi": 1104,
    "02": 1105,
    "aml": 1106,
    "viy": 1107,
    "por": 1108,
    "ollar": 1109,
    "tut": 1110,
    "all": 1111,
    "naf": 1112,
    "nini": 1113,
    "ih": 1114,
    "otla": 1115,
    "zga": 1116,
    "pro": 1117,
    "alik": 1118,
    "rlig": 1119,
    "irli": 1120,
    "rak": 1121,
    "ond": 1122,
    "talim": 1123,
    "rit": 1124,
    "iteti": 1125,
    "tiro": 1126,
    "rligi": 1127,
    "abi": 1128,
    "shq": 1129,
    "isht": 1130,
    "onidan": 1131,
    "nafa": 1132,
    "siteti": 1133,
    "qin": 1134,
    "qal": 1135,
    "ikl": 1136,
    "hamd": 1137,
    "versiteti": 1138,
    "ersiteti": 1139,
    "rsiteti": 1140,
    "alq": 1141,
    "ishti": 1142,
    "oka": 1143,
    "stit": 1144,
    "omoni": 1145,
    "monid": 1146,
    "monida": 1147,
    "yin": 1148,
    "tomoni": 1149,
    "xal": 1150,
    "yn": 1151,
    "und": 1152,
    "ishtir": 1153,
    "202": 1154,
    "hamda": 1155,
    "tni": 1156,
    "yanin": 1157,
    "yaning": 1158,
    "fr": 1159,
    "muh": 1160,
    "tomonid": 1161,
    "tomonida": 1162,
    "omonid": 1163,
    "omonida": 1164,
    "tak": 1165,
    "tomonidan": 1166,
    "omonidan": 1167,
    "monidan": 1168,
    "sta": 1169,
    "nad": 1170,
    "amal": 1171,
    "ug": 1172,
    "erd": 1173,
    "lda": 1174,
    "arb": 1175,
    "mlar": 1176,
    "sar": 1177,
    "nst": 1178,
    "xalq": 1179,
    "ros": 1180,
    "jal": 1181,
    "otlar": 1182,
    "dl": 1183,
    "hili": 1184,
    "haqi": 1185,
    "nafar": 1186,
    "assa": 1187,
    "klar": 1188,
    "enti": 1189,
    "asht": 1190,
    "oc": 1191,
    "shlari": 1192,
    "ashti": 1193,
    "gl": 1194,
    "yet": 1195,
    "ec": 1196,
    "port": 1197,
    "nni": 1198,
    "ashtir": 1199,
    "ikla": 1200,
    "tilg": 1201,
    "rib": 1202,
    "indi": 1203,
    "tilga": 1204,
    "oro": 1205,
    "hon": 1206,
    "lani": 1207,
    "ter": 1208,
    "etd": 1209,
    "jan": 1210,
    "uas": 1211,
    "muas": 1212,
    "tasi": 1213,
    "rati": 1214,
    "tilgan": 1215,
    "shini": 1216,
    "ʻr": 1217,
    "pan": 1218,
    "tab": 1219,
    "yev": 1220,
    "lasht": 1221,
    "rka": 1222,
    "lashti": 1223,
    "miz": 1224,
    "tani": 1225,
    "lashtir": 1226,
    "gini": 1227,
    "ino": 1228,
    "iyanin": 1229,
    "oliya": 1230,
    "iyaning": 1231,
    "ula": 1232,
    "och": 1233,
    "dd": 1234,
    "yak": 1235,
    "atid": 1236,
    "oqi": 1237,
    "nsti": 1238,
    "ssas": 1239,
    "atd": 1240,
    "qsh": 1241,
    "kum": 1242,
    "atida": 1243,
    "kar": 1244,
    "titu": 1245,
    "unin": 1246,
    "llari": 1247,
    "itut": 1248,
    "amla": 1249,
    "eya": 1250,
    "nstit": 1251,
    "nstitu": 1252,
    "stitu": 1253,
    "titut": 1254,
    "inla": 1255,
    "biri": 1256,
    "nstitut": 1257,
    "stitut": 1258,
    "osa": 1259,
    "ntl": 1260,
    "azil": 1261,
    "ziy": 1262,
    "htiro": 1263,
    "uru": 1264,
    "shtiri": 1265,
    "htiri": 1266,
    "zirli": 1267,
    "shah": 1268,
    "hah": 1269,
    "ong": 1270,
    "ac": 1271,
    "dol": 1272,
    "sla": 1273,
    "ishtiro": 1274,
    "shtiro": 1275,
    "ishtirok": 1276,
    "shtirok": 1277,
    "htirok": 1278,
    "tirok": 1279,
    "irok": 1280,
    "huk": 1281,
    "gʻ": 1282,
    "vazirli": 1283,
    "azirli": 1284,
    "ron": 1285,
    "gr": 1286,
    "qt": 1287,
    "izi": 1288,
    "yti": 1289,
    "san": 1290,
    "aʼ": 1291,
    "assas": 1292,
    "giy": 1293,
    "ira": 1294,
    "ishin": 1295,
    "kr": 1296,
    "siyas": 1297,
    "siyasi": 1298,
    "akt": 1299,
    "gar": 1300,
    "muass": 1301,
    "uass": 1302,
    "muassa": 1303,
    "uassa": 1304,
    "muassas": 1305,
    "uassas": 1306,
    "est": 1307,
    "sasa": 1308,
    "korl": 1309,
    "its": 1310,
    "ssasa": 1311,
    "muassasa": 1312,
    "uassasa": 1313,
    "assasa": 1314,
    "onal": 1315,
    "illa": 1316,
    "taq": 1317,
    "uning": 1318,
    "qat": 1319,
    "rash": 1320,
    "aqsh": 1321,
    "dam": 1322,
    "qid": 1323,
    "oshir": 1324,
    "evr": 1325,
    "hid": 1326,
    "akat": 1327,
    "rasi": 1328,
    "dil": 1329,
    "alas": 1330,
    "isl": 1331,
    "lak": 1332,
    "vchil": 1333,
    "ayl": 1334,
    "obi": 1335,
    "lot": 1336,
    "inst": 1337,
    "iso": 1338,
    "irin": 1339,
    "jam": 1340,
    "ao": 1341,
    "irdi": 1342,
    "asm": 1343,
    "huv": 1344,
    "olis": 1345,
    "nar": 1346,
    "zla": 1347,
    "irg": 1348,
    "hib": 1349,
    "zm": 1350,
    "unda": 1351,
    "anti": 1352,
    "etdi": 1353,
    "amk": 1354,
    "ech": 1355,
    "rasm": 1356,
    "yoshl": 1357,
    "tkazil": 1358,
    "kazil": 1359,
    "dor": 1360,
    "rala": 1361,
    "insti": 1362,
    "onlar": 1363,
    "instit": 1364,
    "institu": 1365,
    "arinin": 1366,
    "institut": 1367,
    "aho": 1368,
    "arining": 1369,
    "igin": 1370,
    "00": 1371,
    "lum": 1372,
    "iti": 1373,
    "entl": 1374,
    "aso": 1375,
    "aviy": 1376,
    "agan": 1377,
    "orlar": 1378,
    "igini": 1379,
    "hamk": 1380,
    "orlik": 1381,
    "nas": 1382,
    "aks": 1383,
    "ars": 1384,
    "ess": 1385,
    "ubl": 1386,
    "mark": 1387,
    "giya": 1388,
    "ito": 1389,
    "ligin": 1390,
    "iyati": 1391,
    "laka": 1392,
    "qish": 1393,
    "arka": 1394,
    "ligini": 1395,
    "sob": 1396,
    "nali": 1397,
    "str": 1398,
    "vro": 1399,
    "radi": 1400,
    "chili": 1401,
    "shuv": 1402,
    "ayd": 1403,
    "ifa": 1404,
    "oshlar": 1405,
    "kur": 1406,
    "etis": 1407,
    "olish": 1408,
    "oʻr": 1409,
    "etish": 1410,
    "nlik": 1411,
    "rah": 1412,
    "alqa": 1413,
    "lqa": 1414,
    "oma": 1415,
    "kto": 1416,
    "kan": 1417,
    "ega": 1418,
    "sab": 1419,
    "hida": 1420,
    "olo": 1421,
    "rqa": 1422,
    "sk": 1423,
    "larinin": 1424,
    "davo": 1425,
    "larining": 1426,
    "moli": 1427,
    "did": 1428,
    "alqar": 1429,
    "alqaro": 1430,
    "lqar": 1431,
    "lqaro": 1432,
    "sos": 1433,
    "siz": 1434,
    "ktor": 1435,
    "qur": 1436,
    "oha": 1437,
    "blik": 1438,
    "xalqa": 1439,
    "chl": 1440,
    "lt": 1441,
    "xalqar": 1442,
    "xalqaro": 1443,
    "has": 1444,
    "ilishi": 1445,
    "aliy": 1446,
    "ip": 1447,
    "ai": 1448,
    "chis": 1449,
    "amko": 1450,
    "rbi": 1451,
    "mkor": 1452,
    "amkor": 1453,
    "ubli": 1454,
    "lika": 1455,
    "sad": 1456,
    "riya": 1457,
    "zd": 1458,
    "tra": 1459,
    "qol": 1460,
    "vchila": 1461,
    "vchilar": 1462,
    "igan": 1463,
    "das": 1464,
    "hba": 1465,
    "evro": 1466,
    "ach": 1467,
    "esp": 1468,
    "korli": 1469,
    "ust": 1470,
    "ket": 1471,
    "boʻl": 1472,
    "jar": 1473,
    "pub": 1474,
    "nik": 1475,
    "ilik": 1476,
    "ord": 1477,
    "marka": 1478,
    "publ": 1479,
    "lon": 1480,
    "publi": 1481,
    "ublik": 1482,
    "hamko": 1483,
    "ashtiri": 1484,
    "spu": 1485,
    "hamkor": 1486,
    "resp": 1487,
    "ft": 1488,
    "rilg": 1489,
    "asmi": 1490,
    "publik": 1491,
    "mala": 1492,
    "respu": 1493,
    "respub": 1494,
    "espu": 1495,
    "espub": 1496,
    "spub": 1497,
    "publika": 1498,
    "ublika": 1499,
    "blika": 1500,
    "xona": 1501,
    "respubl": 1502,
    "respubli": 1503,
    "respublik": 1504,
    "espubl": 1505,
    "espubli": 1506,
    "espublik": 1507,
    "spubl": 1508,
    "spubli": 1509,
    "spublik": 1510,
    "turi": 1511,
    "zim": 1512,
    "rilga": 1513,
    "espublika": 1514,
    "spublika": 1515,
    "yar": 1516,
    "ssiy": 1517,
    "boshl": 1518,
    "rilgan": 1519,
    "rof": 1520,
    "vlar": 1521,
    "log": 1522,
    "oiz": 1523,
    "may": 1524,
    "ylar": 1525,
    "rasmi": 1526,
    "sam": 1527,
    "ssiya": 1528,
    "alarin": 1529,
    "rasmiy": 1530,
    "asmiy": 1531,
    "smiy": 1532,
    "mus": 1533,
    "ishlari": 1534,
    "alarini": 1535,
    "ishdi": 1536,
    "pani": 1537,
    "vom": 1538,
    "anu": 1539,
    "davom": 1540,
    "avom": 1541,
    "arm": 1542,
    "kd": 1543,
    "rx": 1544,
    "xt": 1545,
    "oshiri": 1546,
    "ded": 1547,
    "lashtiri": 1548,
    "hra": 1549,
    "ayti": 1550,
    "dedi": 1551,
    "nati": 1552,
    "lit": 1553,
    "akl": 1554,
    "salar": 1555,
    "tm": 1556,
    "yoshla": 1557,
    "abr": 1558,
    "yoshlar": 1559,
    "uku": 1560,
    "oda": 1561,
    "alarn": 1562,
    "alarni": 1563,
    "ishini": 1564,
    "oki": 1565,
    "emi": 1566,
    "hol": 1567,
    "eris": 1568,
    "atil": 1569,
    "ubi": 1570,
    "rbiy": 1571,
    "tik": 1572,
    "foi": 1573,
    "erish": 1574,
    "foiz": 1575,
    "mati": 1576,
    "osiy": 1577,
    "yad": 1578,
    "amkorl": 1579,
    "mkorl": 1580,
    "kda": 1581,
    "bul": 1582,
    "oʻt": 1583,
    "ʻt": 1584,
    "asos": 1585,
    "sio": 1586,
    "mum": 1587,
    "inga": 1588,
    "dal": 1589,
    "ato": 1590,
    "ap": 1591,
    "aqa": 1592,
    "hamkorl": 1593,
    "sod": 1594,
    "ishda": 1595,
    "sion": 1596,
    "arbi": 1597,
    "dig": 1598,
    "ishn": 1599,
    "ishni": 1600,
    "iklar": 1601,
    "iql": 1602,
    "markaz": 1603,
    "arkaz": 1604,
    "rkaz": 1605,
    "tos": 1606,
    "mad": 1607,
    "denti": 1608,
    "sat": 1609,
    "nom": 1610,
    "identi": 1611,
    "sidag": 1612,
    "sidagi": 1613,
    "olg": 1614,
    "lma": 1615,
    "qir": 1616,
    "amkorli": 1617,
    "mkorli": 1618,
    "salari": 1619,
    "diga": 1620,
    "asalar": 1621,
    "rezidenti": 1622,
    "ezidenti": 1623,
    "zidenti": 1624,
    "fes": 1625,
    "saba": 1626,
    "atda": 1627,
    "ata": 1628,
    "arat": 1629,
    "aol": 1630,
    "sasal": 1631,
    "sasala": 1632,
    "sasalar": 1633,
    "top": 1634,
    "ray": 1635,
    "ssasal": 1636,
    "ssasala": 1637,
    "ssasalar": 1638,
    "muassasal": 1639,
    "uassasal": 1640,
    "uassasala": 1641,
    "assasal": 1642,
    "assasala": 1643,
    "assasalar": 1644,
    "paniy": 1645,
    "paniya": 1646,
    "joy": 1647,
    "hamkorli": 1648,
    "unl": 1649,
    "rot": 1650,
    "arq": 1651,
    "sli": 1652,
    "uvchil": 1653,
    "arbiy": 1654,
    "ahr": 1655,
    "qor": 1656,
    "dla": 1657,
    "elg": 1658,
    "fao": 1659,
    "ʻz": 1660,
    "yur": 1661,
    "oʻz": 1662,
    "ej": 1663,
    "faol": 1664,
    "anini": 1665,
    "izg": 1666,
    "masi": 1667,
    "asalari": 1668,
    "abu": 1669,
    "qab": 1670,
    "ruv": 1671,
    "roq": 1672,
    "sinin": 1673,
    "sining": 1674,
    "eb": 1675,
    "umat": 1676,
    "qay": 1677,
    "huku": 1678,
    "sasalari": 1679,
    "ssasalari": 1680,
    "ank": 1681,
    "kuma": 1682,
    "atlari": 1683,
    "tosh": 1684,
    "yalari": 1685,
    "son": 1686,
    "int": 1687,
    "aral": 1688,
    "dida": 1689,
    "sig": 1690,
    "don": 1691,
    "irlig": 1692,
    "irligi": 1693,
    "ilari": 1694,
    "hukum": 1695,
    "hukuma": 1696,
    "hukumat": 1697,
    "ukum": 1698,
    "ukuma": 1699,
    "ukumat": 1700,
    "kumat": 1701,
    "olga": 1702,
    "iyot": 1703,
    "ban": 1704,
    "atin": 1705,
    "tuti": 1706,
    "rdan": 1707,
    "korlik": 1708,
    "rop": 1709,
    "uvchila": 1710,
    "uvchilar": 1711,
    "rol": 1712,
    "ling": 1713,
    "vd": 1714,
    "ele": 1715,
    "lliy": 1716,
    "qti": 1717,
    "ldir": 1718,
    "qida": 1719,
    "dis": 1720,
    "doll": 1721,
    "opa": 1722,
    "dolla": 1723,
    "dollar": 1724,
    "ahb": 1725,
    "likl": 1726,
    "toy": 1727,
    "dey": 1728,
    "likla": 1729,
    "liklar": 1730,
    "lmo": 1731,
    "dek": 1732,
    "vazirlig": 1733,
    "vazirligi": 1734,
    "azirlig": 1735,
    "azirligi": 1736,
    "zirlig": 1737,
    "zirligi": 1738,
    "ans": 1739,
    "lid": 1740,
    "kuc": 1741,
    "kuch": 1742,
    "izga": 1743,
    "sodi": 1744,
    "hisi": 1745,
    "kir": 1746,
    "xs": 1747,
    "alis": 1748,
    "iyalari": 1749,
    "kilo": 1750,
    "adan": 1751,
    "eli": 1752,
    "maq": 1753,
    "iqa": 1754,
    "arti": 1755,
    "hasi": 1756,
    "dr": 1757,
    "olog": 1758,
    "sb": 1759,
    "arla": 1760,
    "izl": 1761,
    "chisi": 1762,
    "nsi": 1763,
    "atn": 1764,
    "chr": 1765,
    "siga": 1766,
    "ntir": 1767,
    "ror": 1768,
    "tori": 1769,
    "atini": 1770,
    "uyu": 1771,
    "kad": 1772,
    "anid": 1773,
    "tti": 1774,
    "fat": 1775,
    "hiris": 1776,
    "hirish": 1777,
    "gen": 1778,
    "abul": 1779,
    "anda": 1780,
    "xit": 1781,
    "ozo": 1782,
    "chra": 1783,
    "hqa": 1784,
    "uchr": 1785,
    "ular": 1786,
    "iha": 1787,
    "qabu": 1788,
    "qabul": 1789,
    "uchra": 1790,
    "erm": 1791,
    "lant": 1792,
    "qiy": 1793,
    "lanis": 1794,
    "lanish": 1795,
    "tim": 1796,
    "ashg": 1797,
    "rr": 1798,
    "gid": 1799,
    "kish": 1800,
    "logi": 1801,
    "itsi": 1802,
    "ilot": 1803,
    "din": 1804,
    "orti": 1805,
    "kli": 1806,
    "ydi": 1807,
    "mun": 1808,
    "shqa": 1809,
    "nki": 1810,
    "boshla": 1811,
    "kasi": 1812,
    "ganin": 1813,
    "pl": 1814,
    "mani": 1815,
    "ovi": 1816,
    "lanti": 1817,
    "yevr": 1818,
    "yevro": 1819,
    "ofe": 1820,
    "soh": 1821,
    "ituti": 1822,
    "aha": 1823,
    "nam": 1824,
    "tituti": 1825,
    "kal": 1826,
    "birin": 1827,
    "omp": 1828,
    "rahb": 1829,
    "rahba": 1830,
    "rahbar": 1831,
    "ahba": 1832,
    "ahbar": 1833,
    "hbar": 1834,
    "hkilo": 1835,
    "nstituti": 1836,
    "stituti": 1837,
    "instituti": 1838,
    "tashkilo": 1839,
    "tashkilot": 1840,
    "ashkilo": 1841,
    "ashkilot": 1842,
    "shkilo": 1843,
    "shkilot": 1844,
    "hkilot": 1845,
    "kilot": 1846,
    "rasid": 1847,
    "rasida": 1848,
    "amkorlik": 1849,
    "mkorlik": 1850,
    "ganini": 1851,
    "digan": 1852,
    "hay": 1853,
    "gida": 1854,
    "oriy": 1855,
    "antir": 1856,
    "lantir": 1857,
    "hish": 1858,
    "lida": 1859,
    "xito": 1860,
    "hamkorlik": 1861,
    "fra": 1862,
    "komp": 1863,
    "ologi": 1864,
    "gil": 1865,
    "xitoy": 1866,
    "itoy": 1867,
    "rek": 1868,
    "lgi": 1869,
    "oniy": 1870,
    "shun": 1871,
    "anida": 1872,
    "nub": 1873,
    "loyi": 1874,
    "oshk": 1875,
    "lmi": 1876,
    "kent": 1877,
    "janu": 1878,
    "janub": 1879,
    "anub": 1880,
    "amm": 1881,
    "lif": 1882,
    "bit": 1883,
    "usi": 1884,
    "yda": 1885,
    "mot": 1886,
    "jl": 1887,
    "uza": 1888,
    "kunl": 1889,
    "mag": 1890,
    "iml": 1891,
    "tat": 1892,
    "prof": 1893,
    "lits": 1894,
    "loyih": 1895,
    "loyiha": 1896,
    "oyih": 1897,
    "oyiha": 1898,
    "yih": 1899,
    "yiha": 1900,
    "zli": 1901,
    "olar": 1902,
    "zar": 1903,
    "mam": 1904,
    "ofes": 1905,
    "ilmi": 1906,
    "ly": 1907,
    "ekto": 1908,
    "umi": 1909,
    "ahri": 1910,
    "irga": 1911,
    "ektor": 1912,
    "shke": 1913,
    "hke": 1914,
    "nta": 1915,
    "udi": 1916,
    "ingan": 1917,
    "pol": 1918,
    "janubi": 1919,
    "anubi": 1920,
    "nubi": 1921,
    "berd": 1922,
    "arsh": 1923,
    "tb": 1924,
    "kishi": 1925,
    "ikd": 1926,
    "ux": 1927,
    "shken": 1928,
    "shkent": 1929,
    "hken": 1930,
    "hkent": 1931,
    "atis": 1932,
    "aqid": 1933,
    "aqida": 1934,
    "hlan": 1935,
    "ln": 1936,
    "toshk": 1937,
    "haqid": 1938,
    "haqida": 1939,
    "ikda": 1940,
    "tig": 1941,
    "nsiy": 1942,
    "mpa": 1943,
    "rshi": 1944,
    "sho": 1945,
    "erdi": 1946,
    "itsiy": 1947,
    "alg": 1948,
    "dim": 1949,
    "toshke": 1950,
    "toshken": 1951,
    "toshkent": 1952,
    "oshke": 1953,
    "oshken": 1954,
    "oshkent": 1955,
    "itsiya": 1956,
    "rmo": 1957,
    "rinc": 1958,
    "zu": 1959,
    "berdi": 1960,
    "irinc": 1961,
    "irinch": 1962,
    "rinch": 1963,
    "mah": 1964,
    "miya": 1965,
    "lok": 1966,
    "hilari": 1967,
    "mav": 1968,
    "chilari": 1969,
    "fess": 1970,
    "bri": 1971,
    "hgan": 1972,
    "profe": 1973,
    "profes": 1974,
    "rofe": 1975,
    "rofes": 1976,
    "profess": 1977,
    "rofess": 1978,
    "ofess": 1979,
    "arshi": 1980,
    "nav": 1981,
    "ksh": 1982,
    "qars": 1983,
    "jor": 1984,
    "mis": 1985,
    "ashga": 1986,
    "qarsh": 1987,
    "qarshi": 1988,
    "arati": 1989,
    "birinc": 1990,
    "birinch": 1991,
    "birinchi": 1992,
    "irinchi": 1993,
    "rinchi": 1994,
    "jala": 1995,
    "bora": 1996,
    "roi": 1997,
    "izm": 1998,
    "ifat": 1999,
    "shahr": 2000,
    "hahr": 2001,
    "shahri": 2002,
    "hahri": 2003,
    "siyo": 2004,
    "ovl": 2005,
    "likd": 2006,
    "loq": 2007,
    "qari": 2008,
    "likda": 2009,
    "iqt": 2010,
    "ntli": 2011,
    "oat": 2012,
    "tiril": 2013,
    "iqti": 2014,
    "yy": 2015,
    "ame": 2016,
    "lmiy": 2017,
    "rild": 2018,
    "rildi": 2019,
    "ilmiy": 2020,
    "kama": 2021,
    "mpan": 2022,
    "ashu": 2023,
    "tinin": 2024,
    "layo": 2025,
    "oyl": 2026,
    "entli": 2027,
    "shm": 2028,
    "yada": 2029,
    "lni": 2030,
    "rayo": 2031,
    "dda": 2032,
    "mpani": 2033,
    "sav": 2034,
    "nalis": 2035,
    "mpaniy": 2036,
    "mpaniya": 2037,
    "markazi": 2038,
    "arkazi": 2039,
    "rkazi": 2040,
    "tiga": 2041,
    "ayy": 2042,
    "ochi": 2043,
    "asinin": 2044,
    "rishi": 2045,
    "iyl": 2046,
    "aqin": 2047,
    "asining": 2048,
    "shlab": 2049,
    "hlab": 2050,
    "tasid": 2051,
    "tasida": 2052,
    "qsa": 2053,
    "ayn": 2054,
    "ashuv": 2055,
    "iqi": 2056,
    "nnin": 2057,
    "qad": 2058,
    "mlak": 2059,
    "fran": 2060,
    "nning": 2061,
    "amlak": 2062,
    "amlaka": 2063,
    "mlaka": 2064,
    "tining": 2065,
    "ʼl": 2066,
    "linga": 2067,
    "rc": 2068,
    "vrop": 2069,
    "sr": 2070,
    "shiris": 2071,
    "shirish": 2072,
    "evrop": 2073,
    "ropa": 2074,
    "evropa": 2075,
    "vropa": 2076,
    "yaq": 2077,
    "xor": 2078,
    "lingan": 2079,
    "kc": 2080,
    "lag": 2081,
    "ndis": 2082,
    "keli": 2083,
    "kch": 2084,
    "zlar": 2085,
    "nsiya": 2086,
    "iqla": 2087,
    "gur": 2088,
    "gd": 2089,
    "ayyo": 2090,
    "yyo": 2091,
    "lam": 2092,
    "illar": 2093,
    "ngl": 2094,
    "moliy": 2095,
    "yaqi": 2096,
    "yaqin": 2097,
    "sosi": 2098,
    "rila": 2099,
    "rlas": 2100,
    "rlash": 2101,
    "slar": 2102,
    "arala": 2103,
    "asosi": 2104,
    "nol": 2105,
    "kchi": 2106,
    "umo": 2107,
    "lakat": 2108,
    "rtas": 2109,
    "orat": 2110,
    "rtasi": 2111,
    "rey": 2112,
    "ert": 2113,
    "anla": 2114,
    "shgan": 2115,
    "iyad": 2116,
    "foizg": 2117,
    "foizga": 2118,
    "oizg": 2119,
    "oizga": 2120,
    "yg": 2121,
    "tiy": 2122,
    "himo": 2123,
    "maml": 2124,
    "mamla": 2125,
    "mamlak": 2126,
    "mamlaka": 2127,
    "mamlakat": 2128,
    "amlakat": 2129,
    "mlakat": 2130,
    "yta": 2131,
    "fu": 2132,
    "liyat": 2133,
    "xno": 2134,
    "arx": 2135,
    "uj": 2136,
    "texno": 2137,
    "exno": 2138,
    "dila": 2139,
    "dilar": 2140,
    "ovla": 2141,
    "adig": 2142,
    "ardan": 2143,
    "umk": 2144,
    "deb": 2145,
    "oir": 2146,
    "lgani": 2147,
    "adiga": 2148,
    "alok": 2149,
    "oshq": 2150,
    "mki": 2151,
    "ganl": 2152,
    "maqs": 2153,
    "qot": 2154,
    "bel": 2155,
    "aqsa": 2156,
    "rtasid": 2157,
    "rtasida": 2158,
    "hras": 2159,
    "qsad": 2160,
    "aqsad": 2161,
    "maqsa": 2162,
    "maqsad": 2163,
    "adigan": 2164,
    "umki": 2165,
    "eks": 2166,
    "ogiy": 2167,
    "hma": 2168,
    "hrash": 2169,
    "chras": 2170,
    "erl": 2171,
    "ela": 2172,
    "rif": 2173,
    "uchras": 2174,
    "lia": 2175,
    "tus": 2176,
    "uchrash": 2177,
    "chrash": 2178,
    "alga": 2179,
    "iyada": 2180,
    "logiy": 2181,
    "aja": 2182,
    "lmoq": 2183,
    "kiri": 2184,
    "ogiya": 2185,
    "tiq": 2186,
    "logiya": 2187,
    "mumk": 2188,
    "ologiy": 2189,
    "tuv": 2190,
    "ologiya": 2191,
    "ruh": 2192,
    "ohi": 2193,
    "ompa": 2194,
    "ngd": 2195,
    "mumki": 2196,
    "mumkin": 2197,
    "umkin": 2198,
    "mkin": 2199,
    "nos": 2200,
    "imiz": 2201,
    "aqd": 2202,
    "kompa": 2203,
    "mt": 2204,
    "ompan": 2205,
    "stu": 2206,
    "kompan": 2207,
    "kompani": 2208,
    "ompani": 2209,
    "rch": 2210,
    "alash": 2211,
    "odiy": 2212,
    "kompaniy": 2213,
    "kompaniya": 2214,
    "ompaniy": 2215,
    "ompaniya": 2216,
    "tax": 2217,
    "halo": 2218,
    "shr": 2219,
    "hilik": 2220,
    "ovlar": 2221,
    "atish": 2222,
    "ganid": 2223,
    "jla": 2224,
    "tush": 2225,
    "eda": 2226,
    "lashg": 2227,
    "aris": 2228,
    "lashga": 2229,
    "dast": 2230,
    "sq": 2231,
    "shim": 2232,
    "lini": 2233,
    "alish": 2234,
    "qib": 2235,
    "iyla": 2236,
    "eyi": 2237,
    "onda": 2238,
    "ivo": 2239,
    "soha": 2240,
    "axs": 2241,
    "buy": 2242,
    "kn": 2243,
    "lek": 2244,
    "anli": 2245,
    "age": 2246,
    "lio": 2247,
    "aoli": 2248,
    "halok": 2249,
    "faoli": 2250,
    "orda": 2251,
    "tild": 2252,
    "zn": 2253,
    "irilg": 2254,
    "ichi": 2255,
    "irilga": 2256,
    "riv": 2257,
    "ridan": 2258,
    "doi": 2259,
    "irilgan": 2260,
    "uta": 2261,
    "boy": 2262,
    "ntiri": 2263,
    "db": 2264,
    "arli": 2265,
    "hiril": 2266,
    "ralar": 2267,
    "oyat": 2268,
    "qan": 2269,
    "rej": 2270,
    "lmoqd": 2271,
    "lmoqda": 2272,
    "jon": 2273,
    "oyd": 2274,
    "vak": 2275,
    "vs": 2276,
    "shis": 2277,
    "illiy": 2278,
    "milliy": 2279,
    "layot": 2280,
    "olgan": 2281,
    "ija": 2282,
    "adag": 2283,
    "aki": 2284,
    "tildi": 2285,
    "zda": 2286,
    "layotg": 2287,
    "layotga": 2288,
    "omid": 2289,
    "yara": 2290,
    "tsiyas": 2291,
    "tsiyasi": 2292,
    "roz": 2293,
    "yb": 2294,
    "qdi": 2295,
    "aksh": 2296,
    "ksha": 2297,
    "tiso": 2298,
    "sari": 2299,
    "layotgan": 2300,
    "aksha": 2301,
    "akshan": 2302,
    "akshanb": 2303,
    "akshanba": 2304,
    "kshan": 2305,
    "kshanb": 2306,
    "kshanba": 2307,
    "tnin": 2308,
    "atg": 2309,
    "yevrop": 2310,
    "yaks": 2311,
    "yevropa": 2312,
    "ger": 2313,
    "omida": 2314,
    "oba": 2315,
    "rsa": 2316,
    "yis": 2317,
    "lind": 2318,
    "tning": 2319,
    "aoliy": 2320,
    "yaksh": 2321,
    "yaksha": 2322,
    "yakshan": 2323,
    "yakshanb": 2324,
    "yakshanba": 2325,
    "erg": 2326,
    "rishg": 2327,
    "rishga": 2328,
    "faoliy": 2329,
    "faoliya": 2330,
    "faoliyat": 2331,
    "aoliya": 2332,
    "aoliyat": 2333,
    "oliyat": 2334,
    "rita": 2335,
    "hig": 2336,
    "zma": 2337,
    "rivo": 2338,
    "voj": 2339,
    "blar": 2340,
    "ivoj": 2341,
    "rivoj": 2342,
    "ashd": 2343,
    "mak": 2344,
    "oss": 2345,
    "beris": 2346,
    "anad": 2347,
    "berish": 2348,
    "adagi": 2349,
    "deya": 2350,
    "alla": 2351,
    "ps": 2352,
    "kni": 2353,
    "diya": 2354,
    "lion": 2355,
    "rekt": 2356,
    "nishi": 2357,
    "hud": 2358,
    "24": 2359,
    "rekto": 2360,
    "rektor": 2361,
    "abl": 2362,
    "ram": 2363,
    "olin": 2364,
    "adb": 2365,
    "eh": 2366,
    "kta": 2367,
    "keng": 2368,
    "llio": 2369,
    "ytd": 2370,
    "hat": 2371,
    "ojl": 2372,
    "bari": 2373,
    "aytd": 2374,
    "ojla": 2375,
    "ruvc": 2376,
    "ruvch": 2377,
    "illio": 2378,
    "illion": 2379,
    "llion": 2380,
    "yish": 2381,
    "23": 2382,
    "uhi": 2383,
    "ridag": 2384,
    "ridagi": 2385,
    "bori": 2386,
    "men": 2387,
    "ossi": 2388,
    "ilda": 2389,
    "ruvchi": 2390,
    "poli": 2391,
    "asidag": 2392,
    "asidagi": 2393,
    "dem": 2394,
    "dbi": 2395,
    "rika": 2396,
    "shish": 2397,
    "huj": 2398,
    "tadb": 2399,
    "tadbi": 2400,
    "adbi": 2401,
    "key": 2402,
    "arish": 2403,
    "haf": 2404,
    "tiz": 2405,
    "ikas": 2406,
    "lantiri": 2407,
    "antiri": 2408,
    "boshq": 2409,
    "gent": 2410,
    "ayyor": 2411,
    "yyor": 2412,
    "unla": 2413,
    "ganida": 2414,
    "oshqa": 2415,
    "lindi": 2416,
    "onn": 2417,
    "tadbir": 2418,
    "adbir": 2419,
    "dbir": 2420,
    "boshqa": 2421,
    "oyda": 2422,
    "chiqa": 2423,
    "hiqa": 2424,
    "ross": 2425,
    "oniya": 2426,
    "jas": 2427,
    "moy": 2428,
    "xu": 2429,
    "atga": 2430,
    "org": 2431,
    "avs": 2432,
    "qon": 2433,
    "ayon": 2434,
    "rossi": 2435,
    "sud": 2436,
    "millio": 2437,
    "million": 2438,
    "ikasi": 2439,
    "hok": 2440,
    "eja": 2441,
    "ivojl": 2442,
    "ivojla": 2443,
    "vojl": 2444,
    "vojla": 2445,
    "sul": 2446,
    "jara": 2447,
    "tanl": 2448,
    "rivojl": 2449,
    "rivojla": 2450,
    "ivojlan": 2451,
    "vojlan": 2452,
    "ojlan": 2453,
    "jlan": 2454,
    "rivojlan": 2455,
    "uriy": 2456,
    "akli": 2457,
    "rossiy": 2458,
    "ossiy": 2459,
    "rossiya": 2460,
    "ossiya": 2461,
    "nlig": 2462,
    "qayt": 2463,
    "nligi": 2464,
    "iye": 2465,
    "nolo": 2466,
    "nolog": 2467,
    "asig": 2468,
    "asiga": 2469,
    "ayi": 2470,
    "lti": 2471,
    "xav": 2472,
    "guru": 2473,
    "chilik": 2474,
    "tij": 2475,
    "iylar": 2476,
    "tili": 2477,
    "ubiy": 2478,
    "higa": 2479,
    "stra": 2480,
    "ndo": 2481,
    "aft": 2482,
    "imla": 2483,
    "spo": 2484,
    "qlar": 2485,
    "lashi": 2486,
    "isr": 2487,
    "shtiris": 2488,
    "shtirish": 2489,
    "htiris": 2490,
    "htirish": 2491,
    "litsi": 2492,
    "ota": 2493,
    "for": 2494,
    "iona": 2495,
    "lardan": 2496,
    "agen": 2497,
    "shri": 2498,
    "qiz": 2499,
    "azo": 2500,
    "rans": 2501,
    "tlig": 2502,
    "tligi": 2503,
    "ndan": 2504,
    "nalish": 2505,
    "zor": 2506,
    "ago": 2507,
    "iqar": 2508,
    "gis": 2509,
    "uro": 2510,
    "aru": 2511,
    "hiqi": 2512,
    "malg": 2513,
    "chiqi": 2514,
    "guruh": 2515,
    "uruh": 2516,
    "texnol": 2517,
    "exnol": 2518,
    "xnol": 2519,
    "olit": 2520,
    "amalg": 2521,
    "malga": 2522,
    "ator": 2523,
    "tura": 2524,
    "amalga": 2525,
    "rv": 2526,
    "texnolo": 2527,
    "texnolog": 2528,
    "exnolo": 2529,
    "exnolog": 2530,
    "xnolo": 2531,
    "xnolog": 2532,
    "ingi": 2533,
    "uzo": 2534,
    "polit": 2535,
    "shiril": 2536,
    "tayy": 2537,
    "yen": 2538,
    "atli": 2539,
    "spor": 2540,
    "tari": 2541,
    "liq": 2542,
    "sport": 2543,
    "nologi": 2544,
    "xni": 2545,
    "tayyo": 2546,
    "tayyor": 2547,
    "igid": 2548,
    "fta": 2549,
    "rqal": 2550,
    "litsiy": 2551,
    "litsiya": 2552,
    "lal": 2553,
    "oʻlg": 2554,
    "ʻlg": 2555,
    "igida": 2556,
    "orq": 2557,
    "bati": 2558,
    "afta": 2559,
    "unk": 2560,
    "raq": 2561,
    "anidan": 2562,
    "texnologi": 2563,
    "exnologi": 2564,
    "xnologi": 2565,
    "ung": 2566,
    "tadi": 2567,
    "rov": 2568,
    "qiq": 2569,
    "lom": 2570,
    "anlar": 2571,
    "qali": 2572,
    "yali": 2573,
    "rar": 2574,
    "iqtis": 2575,
    "iqtiso": 2576,
    "iqtisod": 2577,
    "qtis": 2578,
    "qtiso": 2579,
    "qtisod": 2580,
    "tisod": 2581,
    "isod": 2582,
    "aku": 2583,
    "exni": 2584,
    "ziya": 2585,
    "texni": 2586,
    "ligid": 2587,
    "ligida": 2588,
    "texnik": 2589,
    "exnik": 2590,
    "xnik": 2591,
    "ntiris": 2592,
    "ntirish": 2593,
    "ulo": 2594,
    "reja": 2595,
    "oil": 2596,
    "doir": 2597,
    "llik": 2598,
    "kunla": 2599,
    "iras": 2600,
    "shib": 2601,
    "imlar": 2602,
    "eyin": 2603,
    "iba": 2604,
    "agent": 2605,
    "irasi": 2606,
    "sayl": 2607,
    "shlan": 2608,
    "atni": 2609,
    "haft": 2610,
    "yild": 2611,
    "ilmo": 2612,
    "giz": 2613,
    "ilib": 2614,
    "aydi": 2615,
    "lav": 2616,
    "hafta": 2617,
    "moa": 2618,
    "ilmoq": 2619,
    "chli": 2620,
    "keyi": 2621,
    "tinc": 2622,
    "tinch": 2623,
    "tif": 2624,
    "keyin": 2625,
    "chiqar": 2626,
    "hiqar": 2627,
    "bab": 2628,
    "oʻlga": 2629,
    "ʻlga": 2630,
    "bin": 2631,
    "buyu": 2632,
    "orqa": 2633,
    "tam": 2634,
    "jamo": 2635,
    "avd": 2636,
    "alan": 2637,
    "dala": 2638,
    "amoa": 2639,
    "qara": 2640,
    "itan": 2641,
    "agentl": 2642,
    "gentl": 2643,
    "vg": 2644,
    "jori": 2645,
    "orga": 2646,
    "jamoa": 2647,
    "nadi": 2648,
    "uqo": 2649,
    "joriy": 2650,
    "yig": 2651,
    "rqali": 2652,
    "rili": 2653,
    "sd": 2654,
    "sizl": 2655,
    "ilmoqd": 2656,
    "ilmoqda": 2657,
    "ashr": 2658,
    "arlar": 2659,
    "fil": 2660,
    "dud": 2661,
    "onni": 2662,
    "sadi": 2663,
    "var": 2664,
    "brit": 2665,
    "lnin": 2666,
    "lning": 2667,
    "uno": 2668,
    "elis": 2669,
    "mini": 2670,
    "maʼ": 2671,
    "iroq": 2672,
    "yid": 2673,
    "iqtisodi": 2674,
    "qtisodi": 2675,
    "tisodi": 2676,
    "isodi": 2677,
    "siyalari": 2678,
    "agentli": 2679,
    "gentli": 2680,
    "yili": 2681,
    "vdo": 2682,
    "ayb": 2683,
    "dara": 2684,
    "zimi": 2685,
    "itani": 2686,
    "mb": 2687,
    "savd": 2688,
    "savdo": 2689,
    "avdo": 2690,
    "oyla": 2691,
    "tlas": 2692,
    "lantiris": 2693,
    "lantirish": 2694,
    "antiris": 2695,
    "antirish": 2696,
    "ade": 2697,
    "lala": 2698,
    "yli": 2699,
    "ny": 2700,
    "nig": 2701,
    "lalar": 2702,
    "elish": 2703,
    "taniy": 2704,
    "ganidan": 2705,
    "kelis": 2706,
    "kelish": 2707,
    "iqtisodiy": 2708,
    "qtisodiy": 2709,
    "tisodiy": 2710,
    "isodiy": 2711,
    "sodiy": 2712,
    "taniya": 2713,
    "essi": 2714,
    "ritan": 2715,
    "irlar": 2716,
    "rna": 2717,
    "ashtiris": 2718,
    "ashtirish": 2719,
    "narx": 2720,
    "ritani": 2721,
    "ritaniy": 2722,
    "ritaniya": 2723,
    "itaniy": 2724,
    "itaniya": 2725,
    "udu": 2726,
    "nm": 2727,
    "orin": 2728,
    "rsat": 2729,
    "orqal": 2730,
    "inlar": 2731,
    "yalik": 2732,
    "yuq": 2733,
    "pas": 2734,
    "orqali": 2735,
    "yida": 2736,
    "nologiy": 2737,
    "lumo": 2738,
    "lumot": 2739,
    "umot": 2740,
    "tlash": 2741,
    "shli": 2742,
    "arak": 2743,
    "likas": 2744,
    "ikn": 2745,
    "ikni": 2746,
    "voz": 2747,
    "nologiya": 2748,
    "bb": 2749,
    "likasi": 2750,
    "vil": 2751,
    "qq": 2752,
    "mir": 2753,
    "bank": 2754,
    "exnologiy": 2755,
    "xnologiy": 2756,
    "ilay": 2757,
    "ishlab": 2758,
    "dlar": 2759,
    "ingd": 2760,
    "xnologiya": 2761,
    "zin": 2762,
    "ratil": 2763,
    "hudu": 2764,
    "hudud": 2765,
    "udud": 2766,
    "zol": 2767,
    "sobi": 2768,
    "brita": 2769,
    "britan": 2770,
    "yr": 2771,
    "ifi": 2772,
    "yeta": 2773,
    "ef": 2774,
    "spublikas": 2775,
    "publikas": 2776,
    "publikasi": 2777,
    "ublikas": 2778,
    "ublikasi": 2779,
    "blikas": 2780,
    "blikasi": 2781,
    "britani": 2782,
    "britaniy": 2783,
    "britaniya": 2784,
    "eka": 2785,
    "nala": 2786,
    "hbu": 2787,
    "iyali": 2788,
    "oira": 2789,
    "aliya": 2790,
    "sis": 2791,
    "rim": 2792,
    "yilda": 2793,
    "koni": 2794,
    "erla": 2795,
    "diri": 2796,
    "janubiy": 2797,
    "anubiy": 2798,
    "nubiy": 2799,
    "lashtiris": 2800,
    "tlarn": 2801,
    "tlarni": 2802,
    "shil": 2803,
    "rz": 2804,
    "entlig": 2805,
    "entligi": 2806,
    "ntlig": 2807,
    "ntligi": 2808,
    "qori": 2809,
    "val": 2810,
    "kec": 2811,
    "kech": 2812,
    "arta": 2813,
    "gla": 2814,
    "shid": 2815,
    "yuz": 2816,
    "oshiris": 2817,
    "oshirish": 2818,
    "vaki": 2819,
    "mlari": 2820,
    "koʻ": 2821,
    "mer": 2822,
    "onlari": 2823,
    "yuqo": 2824,
    "yuqor": 2825,
    "yuqori": 2826,
    "uqor": 2827,
    "uqori": 2828,
    "natij": 2829,
    "natija": 2830,
    "atij": 2831,
    "atija": 2832,
    "tija": 2833,
    "arc": 2834,
    "nlas": 2835,
    "doira": 2836,
    "hrid": 2837,
    "tgani": 2838,
    "zlik": 2839,
    "aytdi": 2840,
    "ytdi": 2841,
    "hala": 2842,
    "nlash": 2843,
    "eril": 2844,
    "mash": 2845,
    "akil": 2846,
    "tc": 2847,
    "maqsadi": 2848,
    "aqsadi": 2849,
    "qsadi": 2850,
    "ahrid": 2851,
    "etak": 2852,
    "hrida": 2853,
    "likn": 2854,
    "likni": 2855,
    "ugu": 2856,
    "izim": 2857,
    "shahrid": 2858,
    "shahrida": 2859,
    "hahrid": 2860,
    "hahrida": 2861,
    "ahrida": 2862,
    "iyalik": 2863,
    "ktab": 2864,
    "uho": 2865,
    "irasid": 2866,
    "irasida": 2867,
    "tah": 2868,
    "tizi": 2869,
    "gun": 2870,
    "att": 2871,
    "hola": 2872,
    "izli": 2873,
    "tch": 2874,
    "aray": 2875,
    "vakil": 2876,
    "birl": 2877,
    "tizim": 2878,
    "beril": 2879,
    "mz": 2880,
    "yill": 2881,
    "ifo": 2882,
    "raf": 2883,
    "erma": 2884,
    "arch": 2885,
    "niyat": 2886,
    "akc": 2887,
    "akch": 2888,
    "yni": 2889,
    "toʻ": 2890,
    "oiras": 2891,
    "oirasi": 2892,
    "doiras": 2893,
    "doirasi": 2894,
    "akchi": 2895,
    "aridan": 2896,
    "slik": 2897,
    "adr": 2898,
    "tdan": 2899,
    "ashq": 2900,
    "ore": 2901,
    "etakc": 2902,
    "etakch": 2903,
    "etakchi": 2904,
    "takc": 2905,
    "takch": 2906,
    "takchi": 2907,
    "doirasid": 2908,
    "doirasida": 2909,
    "oirasid": 2910,
    "oirasida": 2911,
    "ero": 2912,
    "qoʻ": 2913,
    "ene": 2914,
    "vv": 2915,
    "nada": 2916,
    "otib": 2917,
    "ksi": 2918,
    "muz": 2919,
    "polits": 2920,
    "politsi": 2921,
    "politsiy": 2922,
    "politsiya": 2923,
    "olits": 2924,
    "olitsi": 2925,
    "olitsiy": 2926,
    "olitsiya": 2927,
    "ktori": 2928,
    "nlo": 2929,
    "nlov": 2930,
    "ilayo": 2931,
    "rki": 2932,
    "erlar": 2933,
    "gas": 2934,
    "onli": 2935,
    "aror": 2936,
    "rdam": 2937,
    "bah": 2938,
    "iln": 2939,
    "jasi": 2940,
    "adid": 2941,
    "bera": 2942,
    "astu": 2943,
    "astur": 2944,
    "stur": 2945,
    "rmoq": 2946,
    "dastu": 2947,
    "dastur": 2948,
    "mn": 2949,
    "shb": 2950,
    "xb": 2951,
    "agentlig": 2952,
    "agentligi": 2953,
    "gentlig": 2954,
    "gentligi": 2955,
    "nalar": 2956,
    "ped": 2957,
    "tuvc": 2958,
    "tuvch": 2959,
    "ull": 2960,
    "abab": 2961,
    "ashri": 2962,
    "qaror": 2963,
    "ijo": 2964,
    "yasin": 2965,
    "sabab": 2966,
    "ohl": 2967,
    "oʻy": 2968,
    "ʻy": 2969,
    "lishd": 2970,
    "halar": 2971,
    "masa": 2972,
    "ilni": 2973,
    "yasini": 2974,
    "tuvchi": 2975,
    "harb": 2976,
    "yetak": 2977,
    "uchl": 2978,
    "hind": 2979,
    "laga": 2980,
    "sizli": 2981,
    "sidan": 2982,
    "fs": 2983,
    "mali": 2984,
    "laridan": 2985,
    "kid": 2986,
    "harbi": 2987,
    "hmo": 2988,
    "harbiy": 2989,
    "muho": 2990,
    "sqi": 2991,
    "yetakc": 2992,
    "yetakch": 2993,
    "yetakchi": 2994,
    "yer": 2995,
    "tila": 2996,
    "itt": 2997,
    "arayo": 2998,
    "qit": 2999
  },
  "vocab_size": 3000,
  "min_frequency": 5
}